<pad>	0
<unk>	0
<s>	0
</s>	0
▁t	-0
he	-1
▁a	-2
in	-3
on	-4
le	-5
at	-6
▁the	-7
er	-8
is	-9
an	-10
en	-11
▁s	-12
re	-13
▁o	-14
▁p	-15
▁{	-16
ti	-17
al	-18
▁c	-19
or	-20
▁of	-21
▁w	-22
st	-23
▁b	-24
it	-25
ar	-26
▁f	-27
▁in	-28
▁m	-29
▁e	-30
si	-31
▁an	-32
▁{\	-33
ed	-34
▁d	-35
la	-36
es	-37
}}	-38
ing	-39
▁(	-40
ati	-41
ent	-42
yst	-43
▁is	-44
qu	-45
om	-46
ac	-47
▁and	-48
ic	-49
tion	-50
yle	-51
▁\	-52
pla	-53
um	-54
ve	-55
ation	-56
dis	-57
▁th	-58
un	-59
displa	-60
ystyle	-61
displaystyle	-62
▁to	-63
ang	-64
ro	-65
▁n	-66
angle	-67
▁)	-68
▁be	-69
ot	-70
_{	-71
▁|	-72
▁re	-73
▁2	-74
as	-75
im	-76
ly	-77
ct	-78
▁T	-79
{\	-80
ant	-81
▁x	-82
ri	-83
▁=	-84
▁h	-85
▁,	-86
ch	-87
tic	-88
ul	-89
▁qu	-90
^{	-91
▁for	-92
▁A	-93
▁that	-94
us	-95
▁st	-96
ll	-97
▁l	-98
▁1	-99
▁as	-100
antum	-101
et	-102
per	-103
▁The	-104
▁}	-105
▁sp	-106
▁ex	-107
ave	-108
▁on	-109
unc	-110
▁quantum	-111
▁pro	-112
▁B	-113
▁g	-114
▁H	-115
▁⟩	-116
rangle	-117
gh	-118
ol	-119
▁con	-120
ow	-121
rac	-122
▁par	-123
▁me	-124
ter	-125
ate	-126
}\	-127
ab	-128
▁are	-129
▁I	-130
▁_{	-131
ce	-132
hb	-133
▁v	-134
il	-135
▁i	-136
ith	-137
am	-138
ut	-139
^{2	-140
▁with	-141
se	-142
▁can	-143
▁partic	-144
her	-145
▁by	-146
▁de	-147
▁S	-148
▁−	-149
unction	-150
▁wave	-151
ity	-152
cal	-153
▁su	-154
ple	-155
de	-156
▁it	-157
▁po	-158
frac	-159
ure	-160
ght	-161
ver	-162
▁particle	-163
▁wh	-164
▁com	-165
ding	-166
ert	-167
▁function	-168
ener	-169
▁k	-170
mat	-171
▁^	-172
int	-173
▁equ	-174
psi	-175
▁ψ	-176
▁⟨	-177
em	-178
ft	-179
▁.	-180
▁r	-181
▁not	-182
ment	-183
langle	-184
▁ph	-185
ace	-186
hat	-187
res	-188
▁or	-189
▁0	-190
▁E	-191
▁mo	-192
▁us	-193
ci	-194
▁In	-195
▁equation	-196
ig	-197
▁ħ	-198
}}\	-199
du	-200
ates	-201
ur	-202
▁at	-203
▁P	-204
ich	-205
hbar	-206
▁whe	-207
▁Ψ	-208
ator	-209
able	-210
chan	-211
▁state	-212
▁space	-213
ect	-214
▁F	-215
ff	-216
sition	-217
▁inter	-218
ics	-219
▁which	-220
▁rel	-221
ystem	-222
eg	-223
▁mechan	-224
pp	-225
▁+	-226
ally	-227
ay	-228
sion	-229
Psi	-230
▁system	-231
▁"	-232
ated	-233
ell	-234
ad	-235
left	-236
id	-237
ssi	-238
orm	-239
▁tim	-240
right	-241
ir	-242
hi	-243
ble	-244
ist	-245
▁ent	-246
▁mechanics	-247
▁al	-248
el	-249
iv	-250
gy	-251
▁this	-252
ther	-253
}}}	-254
mathb	-255
ations	-256
ds	-257
▁Th	-258
▁N	-259
▁meas	-260
▁time	-261
bs	-262
perator	-263
▁un	-264
lect	-265
ctor	-266
▁one	-267
te	-268
oment	-269
ou	-270
▁di	-271
▁ener	-272
wo	-273
▁C	-274
ution	-275
erta	-276
der	-277
rö	-278
▁mat	-279
▁where	-280
▁moment	-281
dinger	-282
▁measure	-283
▁form	-284
chrö	-285
chrödinger	-286
ron	-287
▁two	-288
ag	-289
vector	-290
▁position	-291
ber	-292
▁W	-293
▁co	-294
▁energy	-295
▁L	-296
erm	-297
▁This	-298
▁se	-299
mathbf	-300
▁momentum	-301
lit	-302
ysi	-303
▁exp	-304
▁M	-305
rom	-306
ence	-307
enti	-308
▁res	-309
▁operator	-310
▁tr	-311
▁Schrödinger	-312
▁states	-313
ari	-314
rib	-315
▁other	-316
av	-317
ult	-318
▁int	-319
▁exper	-320
▁entangle	-321
)\	-322
end	-323
iment	-324
abil	-325
▁app	-326
^{2}}	-327
1}	-328
ine	-329
form	-330
▁experiment	-331
so	-332
{2	-333
▁elect	-334
dot	-335
par	-336
^{2}	-337
bert	-338
▁vector	-339
▁physi	-340
▁prob	-341
▁particles	-342
lo	-343
▁probabil	-344
po	-345
ta	-346
▁unc	-347
▁|\	-348
ma	-349
ory	-350
▁all	-351
▁was	-352
▁⁡	-353
erv	-354
istic	-355
lassi	-356
ome	-357
▁li	-358
inty	-359
▁such	-360
ertainty	-361
ak	-362
ite	-363
cc	-364
th	-365
▁from	-366
▁produ	-367
ach	-368
|\	-369
fin	-370
red	-371
▁fo	-372
▁obs	-373
,\	-374
li	-375
▁D	-376
alu	-377
ans	-378
lassical	-379
)=	-380
ck	-381
ge	-382
bo	-383
ame	-384
fer	-385
▁uncertainty	-386
und	-387
▁des	-388
olution	-389
rix	-390
▁gener	-391
ho	-392
ase	-393
pon	-394
sig	-395
▁σ	-396
▁19	-397
▁j	-398
▁spin	-399
xt	-400
ous	-401
-\	-402
ore	-403
▁desc	-404
▁z	-405
▁cal	-406
)}	-407
iz	-408
▁/	-409
▁theory	-410
\\	-411
▁φ	-412
and	-413
own	-414
▁but	-415
led	-416
unn	-417
▁its	-418
▁have	-419
.}	-420
▁im	-421
▁has	-422
▁π	-423
uld	-424
sigma	-425
▁diff	-426
▁electron	-427
ra	-428
▁[	-429
igen	-430
▁Hil	-431
▁num	-432
▁eigen	-433
▁]	-434
▁}}	-435
▁For	-436
▁dis	-437
▁comple	-438
▁Hilbert	-439
ties	-440
▁classical	-441
ary	-442
rin	-443
▁observ	-444
▁product	-445
▁probability	-446
pi	-447
phi	-448
rt	-449
▁giv	-450
sq	-451
▁R	-452
lan	-453
sqrt	-454
▁used	-455
ega	-456
ens	-457
ativ	-458
▁vari	-459
▁const	-460
▁functions	-461
tw	-462
▁ev	-463
▁le	-464
ical	-465
▁tunn	-466
resent	-467
all	-468
een	-469
ular	-470
ction	-471
tween	-472
▁each	-473
▁differ	-474
▁between	-475
▁measurement	-476
(\	-477
mon	-478
ust	-479
rinci	-480
▁ne	-481
▁sh	-482
text	-483
ension	-484
ential	-485
▁abo	-486
▁princi	-487
▁bas	-488
▁rep	-489
▁ω	-490
▁∞	-491
▁if	-492
▁we	-493
▁these	-494
ss	-495
ces	-496
▁any	-497
▁cor	-498
▁non	-499
▁phot	-500
▁number	-501
▁∫	-502
rou	-503
▁pat	-504
imension	-505
▁principle	-506
=\	-507
sed	-508
▁so	-509
rier	-510
▁sim	-511
▁also	-512
▁some	-513
▁describ	-514
▁G	-515
hem	-516
.:	-517
_{0	-518
▁dist	-519
elling	-520
ample	-521
co	-522
lic	-523
▁result	-524
,}	-525
fty	-526
oth	-527
▁lo	-528
infty	-529
▁trans	-530
act	-531
ill	-532
ste	-533
▁ar	-534
▁det	-535
mb	-536
ard	-537
▁kn	-538
dots	-539
▁than	-540
▁then	-541
▁there	-542
▁inc	-543
▁{1}	-544
^{2}\	-545
▁more	-546
▁only	-547
ph	-548
▁J	-549
ten	-550
omega	-551
▁example	-552
▁entanglement	-553
lu	-554
▁ver	-555
▁light	-556
hen	-557
tive	-558
▁both	-559
▁line	-560
▁valu	-561
▁tunnelling	-562
del	-563
iel	-564
ner	-565
pre	-566
ted	-567
ality	-568
▁represent	-569
▁per	-570
▁defin	-571
▁given	-572
▁super	-573
▁solution	-574
pe	-575
▁V	-576
bit	-577
ced	-578
▁It	-579
▁constant	-580
▁ma	-581
▁man	-582
▁same	-583
▁slit	-584
▁interfer	-585
▁O	-586
▁u	-587
={\	-588
▁la	-589
ever	-590
▁imp	-591
▁general	-592
hr	-593
({\	-594
ative	-595
▁Plan	-596
▁using	-597
▁photon	-598
ion	-599
▁bo	-600
▁pa	-601
ance	-602
pend	-603
hemati	-604
matrix	-605
▁Planck	-606
▁expres	-607
tim	-608
▁ch	-609
▁do	-610
▁wor	-611
▁atom	-612
▁will	-613
▁physic	-614
est	-615
ton	-616
▁(\	-617
▁no	-618
▁fre	-619
▁basis	-620
▁interpre	-621
▁physical	-622
▁operators	-623
),	-624
▁He	-625
▁sm	-626
rough	-627
otential	-628
ativistic	-629
not	-630
ensity	-631
▁possi	-632
▁called	-633
▁complex	-634
▁entangled	-635
▁potential	-636
^{\	-637
anti	-638
▁bec	-639
▁^{2}}	-640
▁linear	-641
ke	-642
cre	-643
ort	-644
▁he	-645
▁pre	-646
▁cont	-647
▁known	-648
▁mathemati	-649
sum	-650
llow	-651
ffect	-652
▁over	-653
▁term	-654
▁through	-655
con	-656
ign	-657
▁when	-658
ne	-659
}{\	-660
▁{2	-661
▁acc	-662
tions	-663
▁case	-664
▁quanti	-665
pt	-666
rel	-667
the	-668
tern	-669
▁systems	-670
▁observable	-671
).	-672
..	-673
▁⋅	-674
aus	-675
ric	-676
▁wav	-677
▁been	-678
owever	-679
▁follow	-680
di	-681
▁3	-682
are	-683
equ	-684
▁ob	-685
imit	-686
ject	-687
▁ket	-688
▁set	-689
respon	-690
\,	-691
og	-692
olv	-693
▁may	-694
style	-695
position	-696
textstyle	-697
▁relation	-698
▁U	-699
ies	-700
rit	-701
▁Di	-702
▁en	-703
berg	-704
▁fin	-705
▁out	-706
▁many	-707
▁they	-708
▁different	-709
▁interference	-710
▁mathematical	-711
ng	-712
▁ρ	-713
▁wo	-714
sider	-715
▁would	-716
▁{1}{2	-717
pendent	-718
▁4	-719
▁Bo	-720
▁gre	-721
ature	-722
ingle	-723
stein	-724
▁small	-725
▁waves	-726
▁effect	-727
▁correspon	-728
ass	-729
ents	-730
irst	-731
▁Dirac	-732
instein	-733
▁possible	-734
ty	-735
▁y	-736
▁∗	-737
pic	-738
xim	-739
▁If	-740
▁vi	-741
▁bar	-742
▁into	-743
▁appro	-744
▁single	-745
▁eigenst	-746
▁≥	-747
^{*	-748
geq	-749
ong	-750
ule	-751
ized	-752
▁sin	-753
▁spe	-754
▁inner	-755
▁separ	-756
imensional	-757
ake	-758
ere	-759
ket	-760
ord	-761
cdot	-762
egin	-763
}}{\	-764
▁his	-765
▁fiel	-766
enberg	-767
▁limit	-768
▁value	-769
▁barrier	-770
formation	-771
▁em	-772
ined	-773
velo	-774
▁inv	-775
ating	-776
begin	-777
▁norm	-778
▁first	-779
▁their	-780
isenberg	-781
▁density	-782
▁interpret	-783
▁solutions	-784
vi	-785
▁∣	-786
▁way	-787
▁comp	-788
▁above	-789
▁inclu	-790
▁matrix	-791
▁Einstein	-792
▁superposition	-793
dx	-794
sp	-795
-{\	-796
mid	-797
rog	-798
▁am	-799
tial	-800
▁use	-801
▁path	-802
▁point	-803
▁proper	-804
▁physics	-805
▁Heisenberg	-806
pen	-807
son	-808
▁ad	-809
▁under	-810
▁formul	-811
function	-812
ribution	-813
▁electrons	-814
▁Q	-815
▁∑	-816
alk	-817
ise	-818
▁ro	-819
_{0}	-820
▁}{\	-821
▁comm	-822
▁inequ	-823
▁model	-824
▁consider	-825
▁particular	-826
ian	-827
lis	-828
ose	-829
out	-830
ree	-831
▁=\	-832
olds	-833
ities	-834
▁talk	-835
&\	-836
od	-837
▁K	-838
▁...	-839
▁cannot	-840
▁variable	-841
▁information	-842
cul	-843
ger	-844
eting	-845
▁well	-846
▁about	-847
▁notation	-848
▁relations	-849
▁α	-850
ann	-851
hed	-852
ile	-853
amil	-854
quen	-855
ulti	-856
▁beh	-857
▁Bell	-858
▁found	-859
▁	-860
e	-861
t	-862
a	-863
i	-864
n	-865
s	-866
o	-867
r	-868
l	-869
h	-870
c	-871
d	-872
p	-873
m	-874
u	-875
f	-876
\	-877
y	-878
g	-879
{	-880
}	-881
b	-882
,	-883
w	-884
v	-885
.	-886
x	-887
(	-888
)	-889
2	-890
q	-891
|	-892
=	-893
1	-894
k	-895
^	-896
_	-897
-	-898
T	-899
A	-900
B	-901
0	-902
H	-903
P	-904
⟩	-905
I	-906
S	-907
"	-908
z	-909
−	-910
+	-911
E	-912
:	-913
ψ	-914
⟨	-915
j	-916
N	-917
ħ	-918
Ψ	-919
F	-920
C	-921
/	-922
L	-923
'	-924
3	-925
9	-926
M	-927
W	-928
ö	-929
–	-930
D	-931
4	-932
R	-933
⁡	-934
O	-935
&	-936
φ	-937
G	-938
σ	-939
π	-940
V	-941
[	-942
]	-943
J	-944
ω	-945
∞	-946
5	-947
∫	-948
6	-949
8	-950
U	-951
7	-952
⋅	-953
;	-954
Q	-955
ρ	-956
*	-957
X	-958
∗	-959
≥	-960
K	-961
∣	-962
∑	-963
α	-964
Φ	-965
~	-966
λ	-967
δ	-968
×	-969
′	-970
∂	-971
!	-972
ξ	-973
Z	-974
Δ	-975
∇	-976
θ	-977
⋯	-978
Ω	-979
>	-980
Y	-981
‖	-982
χ	-983
∈	-984
⋮	-985
ε	-986
≤	-987
—	-988
†	-989
⊗	-990
→	-991
≈	-992
·	-993
τ	-994
<	-995
